// Auto-generated TinyML Model Header
// Inputs: t_norm, h_norm, t_speed, h_speed | Outputs: 3 classes (Normal, Door, Fault)

#ifndef __TINYML_MODEL_H__
#define __TINYML_MODEL_H__

const unsigned int model_len = 3072;
const unsigned char model[] = {
  0x1c, 0x00, 0x00, 0x00, 0x54, 0x46, 0x4c, 0x33, 0x14, 0x00, 0x20, 0x00,
  0x1c, 0x00, 0x18, 0x00, 0x14, 0x00, 0x10, 0x00, 0x0c, 0x00, 0x00, 0x00,
  0x08, 0x00, 0x04, 0x00, 0x14, 0x00, 0x00, 0x00, 0x1c, 0x00, 0x00, 0x00,
  0x98, 0x00, 0x00, 0x00, 0xf0, 0x00, 0x00, 0x00, 0xdc, 0x05, 0x00, 0x00,
  0xec, 0x05, 0x00, 0x00, 0x9c, 0x0b, 0x00, 0x00, 0x03, 0x00, 0x00, 0x00,
  0x01, 0x00, 0x00, 0x00, 0x10, 0x00, 0x00, 0x00, 0x00, 0x00, 0x0a, 0x00,
  0x10, 0x00, 0x0c, 0x00, 0x08, 0x00, 0x04, 0x00, 0x0a, 0x00, 0x00, 0x00,
  0x0c, 0x00, 0x00, 0x00, 0x1c, 0x00, 0x00, 0x00, 0x3c, 0x00, 0x00, 0x00,
  0x0f, 0x00, 0x00, 0x00, 0x73, 0x65, 0x72, 0x76, 0x69, 0x6e, 0x67, 0x5f,
  0x64, 0x65, 0x66, 0x61, 0x75, 0x6c, 0x74, 0x00, 0x01, 0x00, 0x00, 0x00,
  0x04, 0x00, 0x00, 0x00, 0x90, 0xff, 0xff, 0xff, 0x0a, 0x00, 0x00, 0x00,
  0x04, 0x00, 0x00, 0x00, 0x08, 0x00, 0x00, 0x00, 0x6f, 0x75, 0x74, 0x70,
  0x75, 0x74, 0x5f, 0x30, 0x00, 0x00, 0x00, 0x00, 0x01, 0x00, 0x00, 0x00,
  0x04, 0x00, 0x00, 0x00, 0x0a, 0xfa, 0xff, 0xff, 0x04, 0x00, 0x00, 0x00,
  0x0c, 0x00, 0x00, 0x00, 0x6b, 0x65, 0x72, 0x61, 0x73, 0x5f, 0x74, 0x65,
  0x6e, 0x73, 0x6f, 0x72, 0x00, 0x00, 0x00, 0x00, 0x02, 0x00, 0x00, 0x00,
  0x34, 0x00, 0x00, 0x00, 0x04, 0x00, 0x00, 0x00, 0xdc, 0xff, 0xff, 0xff,
  0x0d, 0x00, 0x00, 0x00, 0x04, 0x00, 0x00, 0x00, 0x13, 0x00, 0x00, 0x00,
  0x43, 0x4f, 0x4e, 0x56, 0x45, 0x52, 0x53, 0x49, 0x4f, 0x4e, 0x5f, 0x4d,
  0x45, 0x54, 0x41, 0x44, 0x41, 0x54, 0x41, 0x00, 0x08, 0x00, 0x0c, 0x00,
  0x08, 0x00, 0x04, 0x00, 0x08, 0x00, 0x00, 0x00, 0x0c, 0x00, 0x00, 0x00,
  0x04, 0x00, 0x00, 0x00, 0x13, 0x00, 0x00, 0x00, 0x6d, 0x69, 0x6e, 0x5f,
  0x72, 0x75, 0x6e, 0x74, 0x69, 0x6d, 0x65, 0x5f, 0x76, 0x65, 0x72, 0x73,
  0x69, 0x6f, 0x6e, 0x00, 0x0e, 0x00, 0x00, 0x00, 0xe8, 0x04, 0x00, 0x00,
  0xe0, 0x04, 0x00, 0x00, 0xb0, 0x04, 0x00, 0x00, 0x94, 0x04, 0x00, 0x00,
  0x24, 0x04, 0x00, 0x00, 0x14, 0x02, 0x00, 0x00, 0x04, 0x01, 0x00, 0x00,
  0xb4, 0x00, 0x00, 0x00, 0xac, 0x00, 0x00, 0x00, 0xa4, 0x00, 0x00, 0x00,
  0x9c, 0x00, 0x00, 0x00, 0x94, 0x00, 0x00, 0x00, 0x74, 0x00, 0x00, 0x00,
  0x04, 0x00, 0x00, 0x00, 0xbe, 0xfa, 0xff, 0xff, 0x04, 0x00, 0x00, 0x00,
  0x60, 0x00, 0x00, 0x00, 0x0c, 0x00, 0x00, 0x00, 0x08, 0x00, 0x0e, 0x00,
  0x08, 0x00, 0x04, 0x00, 0x08, 0x00, 0x00, 0x00, 0x10, 0x00, 0x00, 0x00,
  0x28, 0x00, 0x00, 0x00, 0x00, 0x00, 0x06, 0x00, 0x08, 0x00, 0x04, 0x00,
  0x06, 0x00, 0x00, 0x00, 0x04, 0x00, 0x00, 0x00, 0x01, 0x00, 0x00, 0x00,
  0xea, 0x03, 0x00, 0x00, 0x0c, 0x00, 0x18, 0x00, 0x14, 0x00, 0x10, 0x00,
  0x0c, 0x00, 0x04, 0x00, 0x0c, 0x00, 0x00, 0x00, 0x27, 0xe1, 0x10, 0x95,
  0xf2, 0x0f, 0x12, 0x00, 0x02, 0x00, 0x00, 0x00, 0x02, 0x00, 0x00, 0x00,
  0x04, 0x00, 0x00, 0x00, 0x06, 0x00, 0x00, 0x00, 0x32, 0x2e, 0x32, 0x30,
  0x2e, 0x30, 0x00, 0x00, 0x2a, 0xfb, 0xff, 0xff, 0x04, 0x00, 0x00, 0x00,
  0x10, 0x00, 0x00, 0x00, 0x31, 0x2e, 0x35, 0x2e, 0x30, 0x00, 0x00, 0x00,
  0x00, 0x00, 0x00, 0x00, 0x00, 0x00, 0x00, 0x00, 0x44, 0xf6, 0xff, 0xff,
  0x48, 0xf6, 0xff, 0xff, 0x4c, 0xf6, 0xff, 0xff, 0x50, 0xf6, 0xff, 0xff,
  0x56, 0xfb, 0xff, 0xff, 0x04, 0x00, 0x00, 0x00, 0x40, 0x00, 0x00, 0x00,
  0x33, 0xb5, 0x18, 0x3f, 0x50, 0x78, 0x3c, 0xbe, 0x53, 0xd4, 0xbc, 0xbe,
  0x05, 0x0c, 0x42, 0x3c, 0x04, 0xdc, 0xfa, 0xbd, 0x7c, 0x1e, 0x26, 0x3f,
  0x2f, 0xd2, 0x23, 0x3e, 0xb3, 0x2d, 0x1f, 0x3f, 0xa3, 0x16, 0x65, 0xbe,
  0xf8, 0x0c, 0x04, 0x3f, 0xe1, 0xf6, 0x2c, 0x3e, 0xbb, 0x07, 0xa2, 0x3e,
  0x7d, 0x68, 0x13, 0x3f, 0x76, 0xf4, 0x40, 0x3e, 0xee, 0xee, 0x13, 0xbe,
  0x64, 0xfa, 0x39, 0xbd, 0xa2, 0xfb, 0xff, 0xff, 0x04, 0x00, 0x00, 0x00,
  0x00, 0x01, 0x00, 0x00, 0x8d, 0x85, 0xbf, 0xbd, 0x6d, 0xb2, 0xa3, 0xbe,
  0xe4, 0xd9, 0x3c, 0xbe, 0xd1, 0xc4, 0x55, 0x3e, 0xbf, 0x16, 0xa1, 0x3e,
  0x24, 0x82, 0x3f, 0xbd, 0xf1, 0xed, 0x37, 0x3b, 0x87, 0xcc, 0xfa, 0xbe,
  0x1d, 0xdd, 0x30, 0x3f, 0x0b, 0xa8, 0xb5, 0xbe, 0xf0, 0x2c, 0xc7, 0x3d,
  0x8e, 0x29, 0x81, 0xbe, 0xc4, 0x0a, 0x0a, 0xbe, 0x43, 0x57, 0xc2, 0x3e,
  0xa3, 0xd4, 0x3b, 0xbf, 0x24, 0xc1, 0xf3, 0x3e, 0xf9, 0xe0, 0x20, 0xbf,
  0x2a, 0x71, 0xa9, 0xbe, 0x16, 0x15, 0x90, 0xbe, 0xb6, 0x44, 0x40, 0xbd,
  0xc4, 0x27, 0x98, 0xbe, 0x61, 0xfb, 0x17, 0xbe, 0x4f, 0xa2, 0xae, 0x3d,
  0x52, 0x2f, 0xf8, 0xbc, 0x9a, 0xc7, 0x02, 0x3f, 0x55, 0xb9, 0x15, 0xbe,
  0x9f, 0x05, 0xe2, 0x3b, 0x61, 0xce, 0x9e, 0x3e, 0x7e, 0x1c, 0x5e, 0xbe,
  0x4c, 0xc6, 0xee, 0x3d, 0x6a, 0x51, 0x65, 0xbc, 0x36, 0x13, 0x94, 0xbe,
  0x9d, 0x4f, 0xde, 0x3d, 0x4f, 0x86, 0x48, 0x3f, 0x96, 0x10, 0xe4, 0x3e,
  0x8c, 0xe3, 0xfd, 0x3d, 0x3f, 0x31, 0x82, 0xbe, 0x69, 0x5e, 0x86, 0x3e,
  0x67, 0x5e, 0x0b, 0xbf, 0xcd, 0xd7, 0x71, 0x3e, 0x77, 0x1e, 0x0e, 0xbe,
  0x1d, 0x25, 0x86, 0x3f, 0x89, 0xa9, 0xd8, 0xbe, 0x8a, 0x67, 0x81, 0x3d,
  0x3c, 0x7e, 0x3c, 0xbe, 0xc7, 0x06, 0x2c, 0xbe, 0xf5, 0xb4, 0xfe, 0x3e,
  0x89, 0xce, 0x64, 0xbf, 0xee, 0x82, 0x9b, 0xbd, 0x27, 0x37, 0xa9, 0x3e,
  0x5f, 0x10, 0x42, 0x3f, 0x8d, 0x52, 0x8c, 0xbe, 0xae, 0x18, 0x1b, 0x3e,
  0x9f, 0x33, 0x60, 0xbd, 0x28, 0xa3, 0x34, 0xbf, 0x7b, 0x35, 0x05, 0x3e,
  0x22, 0x18, 0xa4, 0x3e, 0x0d, 0x3b, 0xdf, 0x3e, 0xa4, 0x11, 0xb6, 0xbe,
  0x60, 0x82, 0x55, 0xbe, 0xa2, 0x2b, 0x05, 0xbf, 0xc9, 0x4e, 0x18, 0xbd,
  0xff, 0x47, 0x61, 0xbe, 0x41, 0x8a, 0x66, 0xbc, 0xae, 0xfc, 0xff, 0xff,
  0x04, 0x00, 0x00, 0x00, 0x00, 0x02, 0x00, 0x00, 0x35, 0x7a, 0x2b, 0xbe,
  0x1f, 0x35, 0xdc, 0x3e, 0x29, 0xb3, 0xaf, 0x3d, 0xc8, 0x32, 0xdd, 0xbe,
  0x2e, 0xe5, 0x25, 0x3f, 0x49, 0x74, 0xfa, 0x3e, 0x8b, 0xb3, 0x33, 0x3f,
  0xf0, 0x76, 0xa9, 0x3e, 0x42, 0x33, 0xf1, 0xbe, 0x4c, 0x36, 0x66, 0x3e,
  0xdc, 0x62, 0x86, 0xbe, 0xd6, 0x5f, 0x2d, 0x3f, 0x8b, 0xf5, 0x34, 0xbe,
  0xbc, 0x85, 0x0a, 0x3f, 0xc5, 0x28, 0x58, 0xbd, 0xcf, 0x24, 0x18, 0xbe,
  0x69, 0xcf, 0x30, 0x3f, 0x8e, 0x85, 0x0d, 0xbf, 0x46, 0x7d, 0x02, 0xbf,
  0x94, 0xdb, 0xcd, 0x3b, 0x87, 0x83, 0x41, 0x3e, 0xaa, 0xd0, 0x99, 0x3f,
  0xed, 0xd5, 0x43, 0x3e, 0xa1, 0xde, 0x18, 0x3f, 0x90, 0x7c, 0x18, 0xbf,
  0xae, 0xaa, 0xaa, 0x3e, 0xd0, 0xc1, 0x17, 0xbb, 0x59, 0x3c, 0x69, 0x3f,
  0xe0, 0x71, 0x66, 0x3f, 0x3b, 0x5e, 0x6b, 0x3e, 0xa2, 0x09, 0xfe, 0xbe,
  0xd6, 0x7f, 0x3e, 0xbe, 0x75, 0x22, 0x2c, 0x3f, 0x42, 0x66, 0xd5, 0x3d,
  0xaa, 0x16, 0xb1, 0xbe, 0x73, 0x48, 0x5e, 0xbe, 0xfe, 0xee, 0x0d, 0xbe,
  0xb5, 0x21, 0x08, 0x3f, 0xcf, 0x7c, 0xee, 0xbd, 0x1c, 0x52, 0x92, 0xbe,
  0x02, 0xdd, 0x4f, 0xbf, 0x55, 0x14, 0x6f, 0x3e, 0x80, 0x81, 0x86, 0xbe,
  0xba, 0x1d, 0xdb, 0x3e, 0x98, 0x29, 0xad, 0x3e, 0x5c, 0x21, 0x78, 0x3d,
  0xa8, 0x77, 0x96, 0x3e, 0x9f, 0xa9, 0x41, 0x3f, 0x02, 0xb4, 0x28, 0x3e,
  0xd2, 0x8e, 0xc4, 0xbd, 0xed, 0x58, 0x48, 0x3f, 0x69, 0x56, 0x1e, 0x3e,
  0xb2, 0x13, 0xdb, 0xbd, 0x69, 0x9f, 0x2e, 0xbf, 0x22, 0x21, 0x2d, 0x3f,
  0x03, 0x89, 0xb9, 0xbe, 0x7c, 0xd5, 0x76, 0xbe, 0xa4, 0x7b, 0x12, 0xbf,
  0x40, 0x56, 0x3f, 0xbf, 0x59, 0x91, 0x28, 0x3f, 0xc6, 0x3e, 0x0e, 0xbf,
  0x03, 0xfa, 0x3c, 0x3f, 0x8f, 0x58, 0x13, 0x3e, 0x96, 0xcb, 0xb1, 0xbe,
  0x98, 0x35, 0xbb, 0xbe, 0x5c, 0xd3, 0xb2, 0xbe, 0x63, 0x8a, 0x49, 0x3e,
  0x18, 0x8a, 0xa9, 0xbe, 0x94, 0x58, 0x8b, 0xbe, 0xc0, 0xa8, 0xdd, 0xbc,
  0x40, 0xcc, 0x7e, 0xbe, 0xf5, 0xbd, 0x32, 0xbd, 0xc8, 0x4b, 0x33, 0xbd,
  0xb0, 0xdb, 0xf6, 0xbd, 0x28, 0x4b, 0x31, 0x3e, 0xdf, 0x45, 0x44, 0x3e,
  0x88, 0x48, 0xea, 0xbd, 0x40, 0xd9, 0xb5, 0xbc, 0x9f, 0x5b, 0xdb, 0xbe,
  0x30, 0xcb, 0x64, 0xbe, 0x0c, 0xfb, 0x0b, 0xbf, 0xce, 0xe8, 0xc5, 0x3e,
  0x21, 0x3f, 0x25, 0xbc, 0x19, 0x29, 0x21, 0x3f, 0x0e, 0xa3, 0xf6, 0xbd,
  0xd3, 0x42, 0x35, 0xbe, 0x47, 0x3a, 0x48, 0x3f, 0xa6, 0x85, 0xad, 0xbd,
  0x2f, 0xec, 0x12, 0x3f, 0x5f, 0x80, 0x47, 0xbe, 0x28, 0xdf, 0xae, 0x3e,
  0xd8, 0xb1, 0x7f, 0xbf, 0x07, 0x32, 0xe7, 0x3e, 0xe4, 0x29, 0xc8, 0xbb,
  0x77, 0x02, 0x92, 0x3e, 0x2b, 0x50, 0xf2, 0xbe, 0xcb, 0xa7, 0xce, 0x3e,
  0x82, 0xd9, 0x10, 0x3b, 0xe8, 0xf8, 0xcb, 0x3e, 0x24, 0xd6, 0xc3, 0xbe,
  0x40, 0xfb, 0xc1, 0x3c, 0xeb, 0x2c, 0x2d, 0x3d, 0x84, 0xdb, 0x9f, 0x3e,
  0x7d, 0x07, 0xd4, 0xbe, 0x18, 0x34, 0xcc, 0x3e, 0x0b, 0xe6, 0x90, 0xbe,
  0x8c, 0x32, 0x11, 0xbd, 0x31, 0xd1, 0x68, 0xbe, 0xe5, 0xc6, 0xbb, 0xbb,
  0xe9, 0x1a, 0x2a, 0xbf, 0x62, 0x41, 0x8e, 0xbd, 0xd4, 0x73, 0xfd, 0x3e,
  0x3d, 0xb7, 0x32, 0x3f, 0x94, 0x13, 0x48, 0x3e, 0xcc, 0x6f, 0xb8, 0xbe,
  0xd8, 0xb7, 0xd8, 0xbe, 0x2a, 0x70, 0x8a, 0xbe, 0x30, 0x0d, 0x70, 0x3f,
  0xa9, 0x15, 0x45, 0x3e, 0xce, 0xb2, 0x0b, 0x3e, 0x2e, 0xf3, 0x13, 0xbf,
  0xdc, 0xa1, 0x24, 0x3e, 0x07, 0xdc, 0x4c, 0xbe, 0x48, 0x47, 0xac, 0x3f,
  0xef, 0xd0, 0x06, 0x3e, 0x84, 0xcb, 0x75, 0xbe, 0x30, 0x5b, 0xcf, 0x3d,
  0x72, 0x89, 0x75, 0xbe, 0xba, 0xfe, 0xff, 0xff, 0x04, 0x00, 0x00, 0x00,
  0x60, 0x00, 0x00, 0x00, 0xc5, 0x5b, 0x00, 0x3f, 0xaa, 0x31, 0xa1, 0x3f,
  0x99, 0x77, 0x55, 0x3f, 0x6a, 0x24, 0x1b, 0xbf, 0x0f, 0x3a, 0x21, 0xbf,
  0x35, 0xdf, 0xa2, 0xbf, 0xb7, 0xa9, 0x3d, 0xbf, 0x08, 0x03, 0x23, 0x3f,
  0xd6, 0xb3, 0xb4, 0xbe, 0x14, 0x13, 0x4a, 0xbe, 0x0a, 0x41, 0xe8, 0xbd,
  0xbf, 0xa2, 0x31, 0xbf, 0x25, 0x2a, 0x3d, 0xbd, 0x2f, 0xf9, 0x52, 0x3e,
  0x56, 0xdc, 0xdc, 0x3f, 0xe8, 0xf5, 0x42, 0xbf, 0x68, 0x81, 0x65, 0x3f,
  0x29, 0xdc, 0x92, 0xbf, 0x85, 0x39, 0x98, 0x3d, 0x7f, 0x68, 0x1f, 0x3f,
  0x30, 0xdc, 0x7d, 0xbe, 0x50, 0x85, 0xf0, 0x3d, 0xec, 0x67, 0x8a, 0xbf,
  0x60, 0xcb, 0xdc, 0xbe, 0x26, 0xff, 0xff, 0xff, 0x04, 0x00, 0x00, 0x00,
  0x0c, 0x00, 0x00, 0x00, 0x6f, 0x55, 0x9b, 0x3c, 0x88, 0x53, 0x1c, 0x3e,
  0xb5, 0xbd, 0x42, 0xbe, 0x3e, 0xff, 0xff, 0xff, 0x04, 0x00, 0x00, 0x00,
  0x20, 0x00, 0x00, 0x00, 0x08, 0xe0, 0x12, 0x3e, 0x45, 0x0d, 0xee, 0x3e,
  0xef, 0xbc, 0xc3, 0x3e, 0xd9, 0xd4, 0x1e, 0x3e, 0x83, 0xfc, 0xe2, 0xbc,
  0x53, 0xa5, 0x80, 0x3e, 0x6b, 0xad, 0xf4, 0xbd, 0x94, 0xe9, 0xad, 0x3e,
  0x68, 0xfa, 0xff, 0xff, 0x6c, 0xfa, 0xff, 0xff, 0x0f, 0x00, 0x00, 0x00,
  0x4d, 0x4c, 0x49, 0x52, 0x20, 0x43, 0x6f, 0x6e, 0x76, 0x65, 0x72, 0x74,
  0x65, 0x64, 0x2e, 0x00, 0x01, 0x00, 0x00, 0x00, 0x14, 0x00, 0x00, 0x00,
  0x00, 0x00, 0x0e, 0x00, 0x18, 0x00, 0x14, 0x00, 0x10, 0x00, 0x0c, 0x00,
  0x08, 0x00, 0x04, 0x00, 0x0e, 0x00, 0x00, 0x00, 0x14, 0x00, 0x00, 0x00,
  0x1c, 0x00, 0x00, 0x00, 0x34, 0x01, 0x00, 0x00, 0x38, 0x01, 0x00, 0x00,
  0x3c, 0x01, 0x00, 0x00, 0x04, 0x00, 0x00, 0x00, 0x6d, 0x61, 0x69, 0x6e,
  0x00, 0x00, 0x00, 0x00, 0x04, 0x00, 0x00, 0x00, 0xdc, 0x00, 0x00, 0x00,
  0x94, 0x00, 0x00, 0x00, 0x50, 0x00, 0x00, 0x00, 0x14, 0x00, 0x00, 0x00,
  0x00, 0x00, 0x0e, 0x00, 0x1a, 0x00, 0x14, 0x00, 0x10, 0x00, 0x0c, 0x00,
  0x0b, 0x00, 0x04, 0x00, 0x0e, 0x00, 0x00, 0x00, 0x1c, 0x00, 0x00, 0x00,
  0x00, 0x00, 0x00, 0x09, 0x1c, 0x00, 0x00, 0x00, 0x20, 0x00, 0x00, 0x00,
  0x01, 0x00, 0x00, 0x00, 0x00, 0x00, 0x06, 0x00, 0x08, 0x00, 0x04, 0x00,
  0x06, 0x00, 0x00, 0x00, 0x00, 0x00, 0x80, 0x3f, 0x01, 0x00, 0x00, 0x00,
  0x0a, 0x00, 0x00, 0x00, 0x01, 0x00, 0x00, 0x00, 0x09, 0x00, 0x00, 0x00,
  0xce, 0xff, 0xff, 0xff, 0x10, 0x00, 0x00, 0x00, 0x00, 0x00, 0x00, 0x08,
  0x0c, 0x00, 0x00, 0x00, 0x10, 0x00, 0x00, 0x00, 0x30, 0xfb, 0xff, 0xff,
  0x01, 0x00, 0x00, 0x00, 0x09, 0x00, 0x00, 0x00, 0x03, 0x00, 0x00, 0x00,
  0x08, 0x00, 0x00, 0x00, 0x03, 0x00, 0x00, 0x00, 0x02, 0x00, 0x00, 0x00,
  0x00, 0x00, 0x0e, 0x00, 0x14, 0x00, 0x00, 0x00, 0x10, 0x00, 0x0c, 0x00,
  0x0b, 0x00, 0x04, 0x00, 0x0e, 0x00, 0x00, 0x00, 0x10, 0x00, 0x00, 0x00,
  0x00, 0x00, 0x00, 0x08, 0x10, 0x00, 0x00, 0x00, 0x14, 0x00, 0x00, 0x00,
  0xba, 0xff, 0xff, 0xff, 0x00, 0x00, 0x00, 0x01, 0x01, 0x00, 0x00, 0x00,
  0x08, 0x00, 0x00, 0x00, 0x03, 0x00, 0x00, 0x00, 0x07, 0x00, 0x00, 0x00,
  0x04, 0x00, 0x00, 0x00, 0x01, 0x00, 0x00, 0x00, 0x00, 0x00, 0x0e, 0x00,
  0x16, 0x00, 0x00, 0x00, 0x10, 0x00, 0x0c, 0x00, 0x0b, 0x00, 0x04, 0x00,
  0x0e, 0x00, 0x00, 0x00, 0x18, 0x00, 0x00, 0x00, 0x00, 0x00, 0x00, 0x08,
  0x18, 0x00, 0x00, 0x00, 0x1c, 0x00, 0x00, 0x00, 0x00, 0x00, 0x06, 0x00,
  0x08, 0x00, 0x07, 0x00, 0x06, 0x00, 0x00, 0x00, 0x00, 0x00, 0x00, 0x01,
  0x01, 0x00, 0x00, 0x00, 0x07, 0x00, 0x00, 0x00, 0x03, 0x00, 0x00, 0x00,
  0x00, 0x00, 0x00, 0x00, 0x05, 0x00, 0x00, 0x00, 0x06, 0x00, 0x00, 0x00,
  0x01, 0x00, 0x00, 0x00, 0x0a, 0x00, 0x00, 0x00, 0x01, 0x00, 0x00, 0x00,
  0x00, 0x00, 0x00, 0x00, 0x0b, 0x00, 0x00, 0x00, 0xe8, 0x03, 0x00, 0x00,
  0x94, 0x03, 0x00, 0x00, 0x40, 0x03, 0x00, 0x00, 0x00, 0x03, 0x00, 0x00,
  0xc0, 0x02, 0x00, 0x00, 0x74, 0x02, 0x00, 0x00, 0x10, 0x02, 0x00, 0x00,
  0x7c, 0x01, 0x00, 0x00, 0xe0, 0x00, 0x00, 0x00, 0x60, 0x00, 0x00, 0x00,
  0x04, 0x00, 0x00, 0x00, 0x5a, 0xfc, 0xff, 0xff, 0x00, 0x00, 0x00, 0x01,
  0x14, 0x00, 0x00, 0x00, 0x1c, 0x00, 0x00, 0x00, 0x1c, 0x00, 0x00, 0x00,
  0x0b, 0x00, 0x00, 0x00, 0x34, 0x00, 0x00, 0x00, 0x02, 0x00, 0x00, 0x00,
  0xff, 0xff, 0xff, 0xff, 0x03, 0x00, 0x00, 0x00, 0x44, 0xfc, 0xff, 0xff,
  0x1b, 0x00, 0x00, 0x00, 0x53, 0x74, 0x61, 0x74, 0x65, 0x66, 0x75, 0x6c,
  0x50, 0x61, 0x72, 0x74, 0x69, 0x74, 0x69, 0x6f, 0x6e, 0x65, 0x64, 0x43,
  0x61, 0x6c, 0x6c, 0x5f, 0x31, 0x3a, 0x30, 0x00, 0x02, 0x00, 0x00, 0x00,
  0x01, 0x00, 0x00, 0x00, 0x03, 0x00, 0x00, 0x00, 0xb2, 0xfc, 0xff, 0xff,
  0x00, 0x00, 0x00, 0x01, 0x14, 0x00, 0x00, 0x00, 0x1c, 0x00, 0x00, 0x00,
  0x1c, 0x00, 0x00, 0x00, 0x0a, 0x00, 0x00, 0x00, 0x58, 0x00, 0x00, 0x00,
  0x02, 0x00, 0x00, 0x00, 0xff, 0xff, 0xff, 0xff, 0x03, 0x00, 0x00, 0x00,
  0x9c, 0xfc, 0xff, 0xff, 0x3c, 0x00, 0x00, 0x00, 0x73, 0x65, 0x71, 0x75,
  0x65, 0x6e, 0x74, 0x69, 0x61, 0x6c, 0x5f, 0x31, 0x2f, 0x64, 0x65, 0x6e,
  0x73, 0x65, 0x5f, 0x32, 0x5f, 0x31, 0x2f, 0x4d, 0x61, 0x74, 0x4d, 0x75,
  0x6c, 0x3b, 0x73, 0x65, 0x71, 0x75, 0x65, 0x6e, 0x74, 0x69, 0x61, 0x6c,
  0x5f, 0x31, 0x2f, 0x64, 0x65, 0x6e, 0x73, 0x65, 0x5f, 0x32, 0x5f, 0x31,
  0x2f, 0x42, 0x69, 0x61, 0x73, 0x41, 0x64, 0x64, 0x00, 0x00, 0x00, 0x00,
  0x02, 0x00, 0x00, 0x00, 0x01, 0x00, 0x00, 0x00, 0x03, 0x00, 0x00, 0x00,
  0x2e, 0xfd, 0xff, 0xff, 0x00, 0x00, 0x00, 0x01, 0x14, 0x00, 0x00, 0x00,
  0x1c, 0x00, 0x00, 0x00, 0x1c, 0x00, 0x00, 0x00, 0x09, 0x00, 0x00, 0x00,
  0x74, 0x00, 0x00, 0x00, 0x02, 0x00, 0x00, 0x00, 0xff, 0xff, 0xff, 0xff,
  0x08, 0x00, 0x00, 0x00, 0x18, 0xfd, 0xff, 0xff, 0x58, 0x00, 0x00, 0x00,
  0x73, 0x65, 0x71, 0x75, 0x65, 0x6e, 0x74, 0x69, 0x61, 0x6c, 0x5f, 0x31,
  0x2f, 0x64, 0x65, 0x6e, 0x73, 0x65, 0x5f, 0x31, 0x5f, 0x32, 0x2f, 0x4d,
  0x61, 0x74, 0x4d, 0x75, 0x6c, 0x3b, 0x73, 0x65, 0x71, 0x75, 0x65, 0x6e,
  0x74, 0x69, 0x61, 0x6c, 0x5f, 0x31, 0x2f, 0x64, 0x65, 0x6e, 0x73, 0x65,
  0x5f, 0x31, 0x5f, 0x32, 0x2f, 0x52, 0x65, 0x6c, 0x75, 0x3b, 0x73, 0x65,
  0x71, 0x75, 0x65, 0x6e, 0x74, 0x69, 0x61, 0x6c, 0x5f, 0x31, 0x2f, 0x64,
  0x65, 0x6e, 0x73, 0x65, 0x5f, 0x31, 0x5f, 0x32, 0x2f, 0x42, 0x69, 0x61,
  0x73, 0x41, 0x64, 0x64, 0x00, 0x00, 0x00, 0x00, 0x02, 0x00, 0x00, 0x00,
  0x01, 0x00, 0x00, 0x00, 0x08, 0x00, 0x00, 0x00, 0xc6, 0xfd, 0xff, 0xff,
  0x00, 0x00, 0x00, 0x01, 0x14, 0x00, 0x00, 0x00, 0x1c, 0x00, 0x00, 0x00,
  0x1c, 0x00, 0x00, 0x00, 0x08, 0x00, 0x00, 0x00, 0x6c, 0x00, 0x00, 0x00,
  0x02, 0x00, 0x00, 0x00, 0xff, 0xff, 0xff, 0xff, 0x10, 0x00, 0x00, 0x00,
  0xb0, 0xfd, 0xff, 0xff, 0x52, 0x00, 0x00, 0x00, 0x73, 0x65, 0x71, 0x75,
  0x65, 0x6e, 0x74, 0x69, 0x61, 0x6c, 0x5f, 0x31, 0x2f, 0x64, 0x65, 0x6e,
  0x73, 0x65, 0x5f, 0x31, 0x2f, 0x4d, 0x61, 0x74, 0x4d, 0x75, 0x6c, 0x3b,
  0x73, 0x65, 0x71, 0x75, 0x65, 0x6e, 0x74, 0x69, 0x61, 0x6c, 0x5f, 0x31,
  0x2f, 0x64, 0x65, 0x6e, 0x73, 0x65, 0x5f, 0x31, 0x2f, 0x52, 0x65, 0x6c,
  0x75, 0x3b, 0x73, 0x65, 0x71, 0x75, 0x65, 0x6e, 0x74, 0x69, 0x61, 0x6c,
  0x5f, 0x31, 0x2f, 0x64, 0x65, 0x6e, 0x73, 0x65, 0x5f, 0x31, 0x2f, 0x42,
  0x69, 0x61, 0x73, 0x41, 0x64, 0x64, 0x00, 0x00, 0x02, 0x00, 0x00, 0x00,
  0x01, 0x00, 0x00, 0x00, 0x10, 0x00, 0x00, 0x00, 0xa6, 0xfe, 0xff, 0xff,
  0x00, 0x00, 0x00, 0x01, 0x10, 0x00, 0x00, 0x00, 0x10, 0x00, 0x00, 0x00,
  0x07, 0x00, 0x00, 0x00, 0x44, 0x00, 0x00, 0x00, 0x30, 0xfe, 0xff, 0xff,
  0x36, 0x00, 0x00, 0x00, 0x73, 0x65, 0x71, 0x75, 0x65, 0x6e, 0x74, 0x69,
  0x61, 0x6c, 0x5f, 0x31, 0x2f, 0x64, 0x65, 0x6e, 0x73, 0x65, 0x5f, 0x31,
  0x2f, 0x52, 0x65, 0x6c, 0x75, 0x3b, 0x73, 0x65, 0x71, 0x75, 0x65, 0x6e,
  0x74, 0x69, 0x61, 0x6c, 0x5f, 0x31, 0x2f, 0x64, 0x65, 0x6e, 0x73, 0x65,
  0x5f, 0x31, 0x2f, 0x42, 0x69, 0x61, 0x73, 0x41, 0x64, 0x64, 0x00, 0x00,
  0x01, 0x00, 0x00, 0x00, 0x10, 0x00, 0x00, 0x00, 0x06, 0xff, 0xff, 0xff,
  0x00, 0x00, 0x00, 0x01, 0x10, 0x00, 0x00, 0x00, 0x10, 0x00, 0x00, 0x00,
  0x06, 0x00, 0x00, 0x00, 0x28, 0x00, 0x00, 0x00, 0x90, 0xfe, 0xff, 0xff,
  0x1b, 0x00, 0x00, 0x00, 0x73, 0x65, 0x71, 0x75, 0x65, 0x6e, 0x74, 0x69,
  0x61, 0x6c, 0x5f, 0x31, 0x2f, 0x64, 0x65, 0x6e, 0x73, 0x65, 0x5f, 0x31,
  0x2f, 0x4d, 0x61, 0x74, 0x4d, 0x75, 0x6c, 0x00, 0x02, 0x00, 0x00, 0x00,
  0x10, 0x00, 0x00, 0x00, 0x04, 0x00, 0x00, 0x00, 0x4e, 0xff, 0xff, 0xff,
  0x00, 0x00, 0x00, 0x01, 0x10, 0x00, 0x00, 0x00, 0x10, 0x00, 0x00, 0x00,
  0x05, 0x00, 0x00, 0x00, 0x1c, 0x00, 0x00, 0x00, 0xd8, 0xfe, 0xff, 0xff,
  0x0f, 0x00, 0x00, 0x00, 0x61, 0x72, 0x69, 0x74, 0x68, 0x2e, 0x63, 0x6f,
  0x6e, 0x73, 0x74, 0x61, 0x6e, 0x74, 0x33, 0x00, 0x02, 0x00, 0x00, 0x00,
  0x08, 0x00, 0x00, 0x00, 0x10, 0x00, 0x00, 0x00, 0x8a, 0xff, 0xff, 0xff,
  0x00, 0x00, 0x00, 0x01, 0x10, 0x00, 0x00, 0x00, 0x10, 0x00, 0x00, 0x00,
  0x04, 0x00, 0x00, 0x00, 0x1c, 0x00, 0x00, 0x00, 0x14, 0xff, 0xff, 0xff,
  0x0f, 0x00, 0x00, 0x00, 0x61, 0x72, 0x69, 0x74, 0x68, 0x2e, 0x63, 0x6f,
  0x6e, 0x73, 0x74, 0x61, 0x6e, 0x74, 0x32, 0x00, 0x02, 0x00, 0x00, 0x00,
  0x03, 0x00, 0x00, 0x00, 0x08, 0x00, 0x00, 0x00, 0xc6, 0xff, 0xff, 0xff,
  0x00, 0x00, 0x00, 0x01, 0x10, 0x00, 0x00, 0x00, 0x10, 0x00, 0x00, 0x00,
  0x03, 0x00, 0x00, 0x00, 0x1c, 0x00, 0x00, 0x00, 0x50, 0xff, 0xff, 0xff,
  0x0f, 0x00, 0x00, 0x00, 0x61, 0x72, 0x69, 0x74, 0x68, 0x2e, 0x63, 0x6f,
  0x6e, 0x73, 0x74, 0x61, 0x6e, 0x74, 0x31, 0x00, 0x01, 0x00, 0x00, 0x00,
  0x03, 0x00, 0x00, 0x00, 0x00, 0x00, 0x16, 0x00, 0x18, 0x00, 0x14, 0x00,
  0x00, 0x00, 0x10, 0x00, 0x0c, 0x00, 0x08, 0x00, 0x00, 0x00, 0x00, 0x00,
  0x00, 0x00, 0x07, 0x00, 0x16, 0x00, 0x00, 0x00, 0x00, 0x00, 0x00, 0x01,
  0x10, 0x00, 0x00, 0x00, 0x10, 0x00, 0x00, 0x00, 0x02, 0x00, 0x00, 0x00,
  0x1c, 0x00, 0x00, 0x00, 0xa0, 0xff, 0xff, 0xff, 0x0e, 0x00, 0x00, 0x00,
  0x61, 0x72, 0x69, 0x74, 0x68, 0x2e, 0x63, 0x6f, 0x6e, 0x73, 0x74, 0x61,
  0x6e, 0x74, 0x00, 0x00, 0x01, 0x00, 0x00, 0x00, 0x08, 0x00, 0x00, 0x00,
  0x00, 0x00, 0x16, 0x00, 0x1c, 0x00, 0x18, 0x00, 0x00, 0x00, 0x14, 0x00,
  0x10, 0x00, 0x0c, 0x00, 0x00, 0x00, 0x00, 0x00, 0x08, 0x00, 0x07, 0x00,
  0x16, 0x00, 0x00, 0x00, 0x00, 0x00, 0x00, 0x01, 0x14, 0x00, 0x00, 0x00,
  0x20, 0x00, 0x00, 0x00, 0x20, 0x00, 0x00, 0x00, 0x01, 0x00, 0x00, 0x00,
  0x3c, 0x00, 0x00, 0x00, 0x02, 0x00, 0x00, 0x00, 0xff, 0xff, 0xff, 0xff,
  0x04, 0x00, 0x00, 0x00, 0x04, 0x00, 0x04, 0x00, 0x04, 0x00, 0x00, 0x00,
  0x1e, 0x00, 0x00, 0x00, 0x73, 0x65, 0x72, 0x76, 0x69, 0x6e, 0x67, 0x5f,
  0x64, 0x65, 0x66, 0x61, 0x75, 0x6c, 0x74, 0x5f, 0x6b, 0x65, 0x72, 0x61,
  0x73, 0x5f, 0x74, 0x65, 0x6e, 0x73, 0x6f, 0x72, 0x3a, 0x30, 0x00, 0x00,
  0x02, 0x00, 0x00, 0x00, 0x01, 0x00, 0x00, 0x00, 0x04, 0x00, 0x00, 0x00,
  0x02, 0x00, 0x00, 0x00, 0x20, 0x00, 0x00, 0x00, 0x04, 0x00, 0x00, 0x00,
  0xf4, 0xff, 0xff, 0xff, 0x19, 0x00, 0x00, 0x00, 0x00, 0x00, 0x00, 0x19,
  0x0c, 0x00, 0x0c, 0x00, 0x0b, 0x00, 0x00, 0x00, 0x00, 0x00, 0x04, 0x00,
  0x0c, 0x00, 0x00, 0x00, 0x09, 0x00, 0x00, 0x00, 0x00, 0x00, 0x00, 0x09
};

#endif // __TINYML_MODEL_H__
