// Auto-generated TinyML Model Header
// Inputs: t_norm, h_norm, t_speed, h_speed | Outputs: 3 classes (Normal, Door, Fault)

#ifndef __TINYML_MODEL_H__
#define __TINYML_MODEL_H__

const unsigned int model_len = 3076;
const unsigned char model[] = {
  0x1c, 0x00, 0x00, 0x00, 0x54, 0x46, 0x4c, 0x33, 0x14, 0x00, 0x20, 0x00,
  0x1c, 0x00, 0x18, 0x00, 0x14, 0x00, 0x10, 0x00, 0x0c, 0x00, 0x00, 0x00,
  0x08, 0x00, 0x04, 0x00, 0x14, 0x00, 0x00, 0x00, 0x1c, 0x00, 0x00, 0x00,
  0x8c, 0x00, 0x00, 0x00, 0xe4, 0x00, 0x00, 0x00, 0xc8, 0x05, 0x00, 0x00,
  0xd8, 0x05, 0x00, 0x00, 0xa0, 0x0b, 0x00, 0x00, 0x03, 0x00, 0x00, 0x00,
  0x01, 0x00, 0x00, 0x00, 0x10, 0x00, 0x00, 0x00, 0x00, 0x00, 0x0a, 0x00,
  0x10, 0x00, 0x0c, 0x00, 0x08, 0x00, 0x04, 0x00, 0x0a, 0x00, 0x00, 0x00,
  0x0c, 0x00, 0x00, 0x00, 0x1c, 0x00, 0x00, 0x00, 0x38, 0x00, 0x00, 0x00,
  0x0f, 0x00, 0x00, 0x00, 0x73, 0x65, 0x72, 0x76, 0x69, 0x6e, 0x67, 0x5f,
  0x64, 0x65, 0x66, 0x61, 0x75, 0x6c, 0x74, 0x00, 0x01, 0x00, 0x00, 0x00,
  0x04, 0x00, 0x00, 0x00, 0x9c, 0xff, 0xff, 0xff, 0x0a, 0x00, 0x00, 0x00,
  0x04, 0x00, 0x00, 0x00, 0x07, 0x00, 0x00, 0x00, 0x64, 0x65, 0x6e, 0x73,
  0x65, 0x5f, 0x32, 0x00, 0x01, 0x00, 0x00, 0x00, 0x04, 0x00, 0x00, 0x00,
  0x1a, 0xfa, 0xff, 0xff, 0x04, 0x00, 0x00, 0x00, 0x07, 0x00, 0x00, 0x00,
  0x69, 0x6e, 0x70, 0x75, 0x74, 0x5f, 0x31, 0x00, 0x02, 0x00, 0x00, 0x00,
  0x34, 0x00, 0x00, 0x00, 0x04, 0x00, 0x00, 0x00, 0xdc, 0xff, 0xff, 0xff,
  0x0d, 0x00, 0x00, 0x00, 0x04, 0x00, 0x00, 0x00, 0x13, 0x00, 0x00, 0x00,
  0x43, 0x4f, 0x4e, 0x56, 0x45, 0x52, 0x53, 0x49, 0x4f, 0x4e, 0x5f, 0x4d,
  0x45, 0x54, 0x41, 0x44, 0x41, 0x54, 0x41, 0x00, 0x08, 0x00, 0x0c, 0x00,
  0x08, 0x00, 0x04, 0x00, 0x08, 0x00, 0x00, 0x00, 0x0c, 0x00, 0x00, 0x00,
  0x04, 0x00, 0x00, 0x00, 0x13, 0x00, 0x00, 0x00, 0x6d, 0x69, 0x6e, 0x5f,
  0x72, 0x75, 0x6e, 0x74, 0x69, 0x6d, 0x65, 0x5f, 0x76, 0x65, 0x72, 0x73,
  0x69, 0x6f, 0x6e, 0x00, 0x0e, 0x00, 0x00, 0x00, 0xe0, 0x04, 0x00, 0x00,
  0xd8, 0x04, 0x00, 0x00, 0xa8, 0x04, 0x00, 0x00, 0x8c, 0x04, 0x00, 0x00,
  0x3c, 0x04, 0x00, 0x00, 0x2c, 0x03, 0x00, 0x00, 0x1c, 0x01, 0x00, 0x00,
  0xac, 0x00, 0x00, 0x00, 0xa4, 0x00, 0x00, 0x00, 0x9c, 0x00, 0x00, 0x00,
  0x94, 0x00, 0x00, 0x00, 0x8c, 0x00, 0x00, 0x00, 0x6c, 0x00, 0x00, 0x00,
  0x04, 0x00, 0x00, 0x00, 0xc6, 0xfa, 0xff, 0xff, 0x04, 0x00, 0x00, 0x00,
  0x58, 0x00, 0x00, 0x00, 0x0c, 0x00, 0x00, 0x00, 0x08, 0x00, 0x0e, 0x00,
  0x08, 0x00, 0x04, 0x00, 0x08, 0x00, 0x00, 0x00, 0x10, 0x00, 0x00, 0x00,
  0x28, 0x00, 0x00, 0x00, 0x00, 0x00, 0x06, 0x00, 0x08, 0x00, 0x04, 0x00,
  0x06, 0x00, 0x00, 0x00, 0x04, 0x00, 0x00, 0x00, 0x01, 0x00, 0x00, 0x00,
  0xea, 0x03, 0x00, 0x00, 0x00, 0x00, 0x0a, 0x00, 0x10, 0x00, 0x0c, 0x00,
  0x08, 0x00, 0x04, 0x00, 0x0a, 0x00, 0x00, 0x00, 0x02, 0x00, 0x00, 0x00,
  0x02, 0x00, 0x00, 0x00, 0x04, 0x00, 0x00, 0x00, 0x06, 0x00, 0x00, 0x00,
  0x32, 0x2e, 0x31, 0x34, 0x2e, 0x30, 0x00, 0x00, 0x2a, 0xfb, 0xff, 0xff,
  0x04, 0x00, 0x00, 0x00, 0x10, 0x00, 0x00, 0x00, 0x31, 0x2e, 0x35, 0x2e,
  0x30, 0x00, 0x00, 0x00, 0x00, 0x00, 0x00, 0x00, 0x00, 0x00, 0x00, 0x00,
  0x28, 0xf6, 0xff, 0xff, 0x2c, 0xf6, 0xff, 0xff, 0x30, 0xf6, 0xff, 0xff,
  0x34, 0xf6, 0xff, 0xff, 0x56, 0xfb, 0xff, 0xff, 0x04, 0x00, 0x00, 0x00,
  0x60, 0x00, 0x00, 0x00, 0x0c, 0xbb, 0xad, 0x3f, 0x98, 0x4f, 0xce, 0x3e,
  0x59, 0x62, 0x03, 0xbe, 0x03, 0x58, 0x95, 0x3e, 0x26, 0x1f, 0x1c, 0x3f,
  0x35, 0xf4, 0x58, 0xbf, 0x82, 0xf1, 0xc3, 0xbe, 0x64, 0x4b, 0x96, 0x3f,
  0x35, 0x2d, 0xe1, 0x3e, 0x37, 0x7a, 0xe6, 0x3d, 0xe8, 0xda, 0x15, 0x3f,
  0xb9, 0xba, 0xa5, 0xbe, 0x8a, 0x41, 0x08, 0xbf, 0xdc, 0x64, 0x73, 0x3e,
  0x32, 0xdd, 0x14, 0xbf, 0x06, 0x38, 0x8e, 0xbf, 0x21, 0x29, 0x9b, 0xbf,
  0x22, 0x4f, 0x88, 0xbe, 0x46, 0x61, 0x9e, 0xbc, 0xad, 0x75, 0x07, 0x3f,
  0x1b, 0xe0, 0x83, 0x3f, 0x51, 0x78, 0x01, 0xba, 0xaa, 0x72, 0x79, 0x3f,
  0x04, 0x59, 0xd7, 0xbf, 0xc2, 0xfb, 0xff, 0xff, 0x04, 0x00, 0x00, 0x00,
  0x00, 0x02, 0x00, 0x00, 0x3b, 0xa6, 0x48, 0xbf, 0xa2, 0xef, 0x99, 0xbe,
  0x66, 0x67, 0x1c, 0xbf, 0x0e, 0x4f, 0xf1, 0xbe, 0x2c, 0xd3, 0x46, 0x3e,
  0xba, 0xb6, 0xdc, 0xbc, 0x88, 0xa9, 0x73, 0x3c, 0x4c, 0xb7, 0xc7, 0x3e,
  0xe4, 0xd8, 0xe8, 0xbe, 0x3f, 0xc9, 0x33, 0xbe, 0xf2, 0xdc, 0xf1, 0xbd,
  0x44, 0x1e, 0x30, 0x3f, 0xe7, 0x51, 0x72, 0x3f, 0x62, 0xbe, 0xe9, 0x3e,
  0x7d, 0x46, 0x58, 0xbe, 0x11, 0xf3, 0x0c, 0xbf, 0x98, 0xd3, 0xde, 0x3e,
  0x21, 0x9a, 0x56, 0x3e, 0x29, 0xfc, 0x30, 0x3d, 0xd9, 0x93, 0x0f, 0xbf,
  0x52, 0x44, 0x1c, 0xbf, 0x42, 0xaa, 0x24, 0xbc, 0x72, 0x3a, 0x76, 0x3b,
  0xd9, 0x27, 0xd7, 0xbe, 0x21, 0xbf, 0x00, 0xbf, 0x63, 0xf9, 0xba, 0xbe,
  0x93, 0x58, 0xd7, 0x3e, 0x31, 0x76, 0x46, 0xbf, 0xd2, 0x85, 0x34, 0xbe,
  0x24, 0xe9, 0x81, 0x3e, 0xb8, 0x75, 0xaf, 0xbd, 0x0a, 0xdf, 0xe6, 0x3e,
  0x00, 0x55, 0xb0, 0x3c, 0x47, 0xa2, 0xd7, 0xbe, 0x44, 0xab, 0xbe, 0x3e,
  0xee, 0x18, 0xca, 0xbd, 0x64, 0x56, 0x36, 0x3e, 0x16, 0x7f, 0x76, 0xbe,
  0x45, 0x44, 0x1a, 0x3b, 0x51, 0x92, 0xed, 0xbe, 0x88, 0x13, 0x46, 0xbd,
  0x91, 0x98, 0xdd, 0xbe, 0xc8, 0xfc, 0xc1, 0x3e, 0x72, 0xc2, 0x95, 0xbe,
  0xd1, 0xe5, 0xad, 0x3e, 0xde, 0x3b, 0xf0, 0xbe, 0x8c, 0x61, 0xce, 0xbd,
  0x95, 0x41, 0x2d, 0xbe, 0xed, 0x36, 0x8d, 0x3d, 0x8b, 0x04, 0x23, 0xbe,
  0xf8, 0x2a, 0xe0, 0xbe, 0xa5, 0x68, 0x77, 0x3e, 0xe2, 0x34, 0xd1, 0x3e,
  0x80, 0x06, 0xd0, 0xbe, 0x39, 0xfe, 0xa1, 0x3e, 0x4d, 0xef, 0xbd, 0xbd,
  0x1f, 0x64, 0xd3, 0xbe, 0x09, 0x14, 0x90, 0x3e, 0xfb, 0xeb, 0xe5, 0x3e,
  0x26, 0x8b, 0x38, 0xbf, 0x1f, 0xba, 0xd7, 0x3e, 0xef, 0x3d, 0xec, 0x3d,
  0xb5, 0x5d, 0x97, 0x3e, 0xe8, 0x83, 0x9a, 0xbd, 0x29, 0x88, 0xab, 0x3e,
  0x6d, 0x93, 0xbb, 0xbe, 0x69, 0xa7, 0x11, 0xbe, 0x5d, 0x41, 0xa9, 0x3e,
  0x6f, 0x4e, 0x2a, 0xbf, 0x18, 0x54, 0x37, 0xbe, 0x51, 0x6f, 0x9c, 0x3c,
  0x99, 0x4e, 0x25, 0x3f, 0xec, 0x91, 0x2b, 0x3f, 0x05, 0xad, 0x11, 0xbf,
  0x19, 0x7d, 0xae, 0xbe, 0x26, 0xfb, 0x6b, 0x3f, 0xea, 0xbb, 0x98, 0x3d,
  0x39, 0xe0, 0xff, 0x3e, 0x73, 0x1e, 0x13, 0xbf, 0x8e, 0x88, 0x68, 0x3e,
  0x6a, 0x03, 0x0e, 0xbf, 0x2a, 0xd7, 0x68, 0xbe, 0x0e, 0xb5, 0x68, 0x3f,
  0xba, 0x73, 0x55, 0xbe, 0x17, 0x80, 0x77, 0x3e, 0xe5, 0xb2, 0x8a, 0x3d,
  0xb2, 0x4b, 0xbc, 0xbe, 0xf8, 0xff, 0x12, 0xbd, 0x83, 0xf7, 0xc5, 0x3e,
  0x1a, 0x7c, 0x45, 0x3f, 0xa4, 0x82, 0x5a, 0x3e, 0x27, 0x9c, 0xf7, 0x3e,
  0x1d, 0x5a, 0x4c, 0x3e, 0x86, 0x3c, 0xad, 0x3d, 0xab, 0x27, 0x22, 0x3e,
  0xee, 0x9f, 0xae, 0x3e, 0x9e, 0x5a, 0x0f, 0xbf, 0x6e, 0x2f, 0x81, 0xbe,
  0x15, 0x69, 0x3f, 0x3e, 0xe7, 0x15, 0xe6, 0x3e, 0x81, 0xfd, 0xb9, 0x3e,
  0xfe, 0x82, 0x02, 0xbf, 0x82, 0x32, 0x1c, 0xbd, 0xe7, 0x86, 0xb1, 0xbe,
  0xcf, 0x06, 0x17, 0xbf, 0x2c, 0xdc, 0xd2, 0x3e, 0x50, 0x0f, 0x98, 0x3e,
  0x99, 0xb0, 0x19, 0xbe, 0x9e, 0xc9, 0xb5, 0x3e, 0x1f, 0x3d, 0x29, 0x3f,
  0xb6, 0x82, 0x03, 0x3e, 0x22, 0x46, 0xa1, 0xbe, 0x43, 0xc5, 0xf0, 0xbe,
  0x21, 0x2a, 0x30, 0xbf, 0xc7, 0x40, 0x56, 0xbf, 0xec, 0x92, 0x6e, 0x3e,
  0x4a, 0x98, 0x64, 0xbe, 0x60, 0xca, 0x47, 0x3e, 0x26, 0xad, 0x04, 0xbf,
  0xd8, 0x6d, 0xab, 0x3d, 0x7d, 0xb7, 0x35, 0xbe, 0x88, 0x33, 0x8a, 0xbe,
  0x3c, 0x10, 0x04, 0xbf, 0xbb, 0xb7, 0x11, 0x3f, 0x9a, 0x5e, 0xfb, 0x3e,
  0xee, 0x18, 0xae, 0x3e, 0x2d, 0x84, 0xdc, 0xbe, 0xf0, 0xca, 0xd6, 0xbe,
  0xce, 0xfd, 0xff, 0xff, 0x04, 0x00, 0x00, 0x00, 0x00, 0x01, 0x00, 0x00,
  0x99, 0x79, 0x77, 0x3e, 0x04, 0xac, 0x67, 0xbf, 0x76, 0x29, 0xe8, 0x3d,
  0xaa, 0x71, 0xf1, 0x3e, 0xcc, 0x74, 0x35, 0x3e, 0xb7, 0x06, 0xad, 0xbd,
  0x11, 0x77, 0xd5, 0xbc, 0x8d, 0xd2, 0x20, 0x3f, 0x1f, 0xfa, 0xfb, 0x3e,
  0x0a, 0xa9, 0x60, 0x3f, 0x32, 0xf9, 0x3b, 0xbe, 0x32, 0x34, 0xdd, 0xbd,
  0x72, 0xf2, 0x3b, 0xbf, 0x32, 0xf7, 0x97, 0xbe, 0xf3, 0x84, 0x8f, 0xbd,
  0xc2, 0xf9, 0xb6, 0x3e, 0x0c, 0x57, 0x74, 0xbe, 0xcd, 0xb0, 0x62, 0x3f,
  0x68, 0x95, 0xea, 0xbd, 0x29, 0x62, 0x09, 0x3e, 0x66, 0x61, 0xee, 0x3e,
  0x9f, 0x1f, 0xb4, 0x3e, 0x8d, 0x2a, 0x9c, 0x3e, 0x26, 0x8e, 0x0d, 0x3f,
  0x1a, 0x6b, 0x5d, 0xbe, 0x74, 0x91, 0x4d, 0xbf, 0xf6, 0x0b, 0xd0, 0x3e,
  0x77, 0x7d, 0xb7, 0xbe, 0x76, 0x33, 0x60, 0x3e, 0xd2, 0x8a, 0xae, 0xbe,
  0x51, 0xa3, 0x1b, 0xbf, 0x24, 0xad, 0xbf, 0x3e, 0xb5, 0x19, 0x86, 0x3f,
  0xd8, 0x93, 0x9c, 0xbe, 0x81, 0x00, 0x62, 0x3e, 0x90, 0xfe, 0x18, 0x3e,
  0x14, 0x2c, 0xc8, 0x3e, 0x19, 0x69, 0x74, 0x3f, 0x25, 0xc7, 0x1a, 0x3e,
  0x0e, 0xc0, 0x8a, 0x3e, 0x44, 0x71, 0x8c, 0x3d, 0xba, 0x81, 0xfc, 0x3e,
  0xa2, 0x4d, 0x98, 0x3d, 0xdb, 0x40, 0x88, 0x3e, 0xca, 0xbe, 0x43, 0x3f,
  0x1b, 0x03, 0xe6, 0xbd, 0x4a, 0xcc, 0x7d, 0xbd, 0xa2, 0x12, 0xab, 0xbc,
  0x34, 0xe3, 0x74, 0xbe, 0x89, 0x6c, 0x9a, 0x3e, 0xb4, 0x99, 0xa0, 0x3e,
  0xa2, 0x9f, 0x59, 0x3e, 0xf7, 0x13, 0xc7, 0xbe, 0x01, 0x65, 0x94, 0x3e,
  0xe3, 0x5e, 0x40, 0xbe, 0x07, 0x1b, 0xa2, 0xbe, 0x52, 0x75, 0xcd, 0xbd,
  0x5c, 0x72, 0x89, 0x3f, 0xbc, 0xc8, 0xb6, 0xbe, 0x88, 0x9e, 0x01, 0xbf,
  0xf2, 0xff, 0x22, 0xbf, 0x19, 0x09, 0x2d, 0xbf, 0x46, 0xb8, 0x61, 0x3d,
  0x1d, 0x78, 0xe5, 0xbe, 0xda, 0xfe, 0xff, 0xff, 0x04, 0x00, 0x00, 0x00,
  0x40, 0x00, 0x00, 0x00, 0x40, 0xc5, 0x0e, 0xbd, 0x33, 0x40, 0x6f, 0xbe,
  0xb5, 0x30, 0xa4, 0xbe, 0x14, 0x6b, 0x9f, 0x3e, 0x0f, 0x61, 0x97, 0x3e,
  0x16, 0xed, 0x36, 0x3e, 0x85, 0x33, 0x48, 0x3d, 0x12, 0x7f, 0x10, 0x3f,
  0x67, 0xb0, 0xf1, 0xbd, 0x24, 0xca, 0x81, 0xbe, 0x37, 0x5a, 0x2e, 0xbe,
  0x5a, 0x9d, 0x48, 0x3f, 0x52, 0x23, 0x36, 0x3f, 0x2e, 0x9f, 0x41, 0x3f,
  0x27, 0x65, 0x83, 0xbe, 0x55, 0x72, 0x8c, 0x3e, 0x26, 0xff, 0xff, 0xff,
  0x04, 0x00, 0x00, 0x00, 0x0c, 0x00, 0x00, 0x00, 0xb8, 0xd3, 0x07, 0x3e,
  0x7a, 0xb7, 0x2f, 0xbe, 0x1c, 0x42, 0x7b, 0xbd, 0x3e, 0xff, 0xff, 0xff,
  0x04, 0x00, 0x00, 0x00, 0x20, 0x00, 0x00, 0x00, 0x5e, 0xf8, 0x00, 0x3f,
  0x1e, 0xde, 0x48, 0xbe, 0xe4, 0xe3, 0x98, 0xbc, 0x38, 0x25, 0xfb, 0xbc,
  0x07, 0x51, 0xe6, 0x3e, 0x6c, 0xff, 0x0a, 0x3d, 0x31, 0x03, 0xd0, 0xbd,
  0xa1, 0x2d, 0x37, 0x3f, 0x4c, 0xfa, 0xff, 0xff, 0x50, 0xfa, 0xff, 0xff,
  0x0f, 0x00, 0x00, 0x00, 0x4d, 0x4c, 0x49, 0x52, 0x20, 0x43, 0x6f, 0x6e,
  0x76, 0x65, 0x72, 0x74, 0x65, 0x64, 0x2e, 0x00, 0x01, 0x00, 0x00, 0x00,
  0x14, 0x00, 0x00, 0x00, 0x00, 0x00, 0x0e, 0x00, 0x18, 0x00, 0x14, 0x00,
  0x10, 0x00, 0x0c, 0x00, 0x08, 0x00, 0x04, 0x00, 0x0e, 0x00, 0x00, 0x00,
  0x14, 0x00, 0x00, 0x00, 0x1c, 0x00, 0x00, 0x00, 0x34, 0x01, 0x00, 0x00,
  0x38, 0x01, 0x00, 0x00, 0x3c, 0x01, 0x00, 0x00, 0x04, 0x00, 0x00, 0x00,
  0x6d, 0x61, 0x69, 0x6e, 0x00, 0x00, 0x00, 0x00, 0x04, 0x00, 0x00, 0x00,
  0xdc, 0x00, 0x00, 0x00, 0x94, 0x00, 0x00, 0x00, 0x50, 0x00, 0x00, 0x00,
  0x14, 0x00, 0x00, 0x00, 0x00, 0x00, 0x0e, 0x00, 0x1a, 0x00, 0x14, 0x00,
  0x10, 0x00, 0x0c, 0x00, 0x0b, 0x00, 0x04, 0x00, 0x0e, 0x00, 0x00, 0x00,
  0x1c, 0x00, 0x00, 0x00, 0x00, 0x00, 0x00, 0x09, 0x1c, 0x00, 0x00, 0x00,
  0x20, 0x00, 0x00, 0x00, 0x01, 0x00, 0x00, 0x00, 0x00, 0x00, 0x06, 0x00,
  0x08, 0x00, 0x04, 0x00, 0x06, 0x00, 0x00, 0x00, 0x00, 0x00, 0x80, 0x3f,
  0x01, 0x00, 0x00, 0x00, 0x0a, 0x00, 0x00, 0x00, 0x01, 0x00, 0x00, 0x00,
  0x09, 0x00, 0x00, 0x00, 0xce, 0xff, 0xff, 0xff, 0x10, 0x00, 0x00, 0x00,
  0x00, 0x00, 0x00, 0x08, 0x0c, 0x00, 0x00, 0x00, 0x10, 0x00, 0x00, 0x00,
  0x14, 0xfb, 0xff, 0xff, 0x01, 0x00, 0x00, 0x00, 0x09, 0x00, 0x00, 0x00,
  0x03, 0x00, 0x00, 0x00, 0x08, 0x00, 0x00, 0x00, 0x06, 0x00, 0x00, 0x00,
  0x02, 0x00, 0x00, 0x00, 0x00, 0x00, 0x0e, 0x00, 0x14, 0x00, 0x00, 0x00,
  0x10, 0x00, 0x0c, 0x00, 0x0b, 0x00, 0x04, 0x00, 0x0e, 0x00, 0x00, 0x00,
  0x10, 0x00, 0x00, 0x00, 0x00, 0x00, 0x00, 0x08, 0x10, 0x00, 0x00, 0x00,
  0x14, 0x00, 0x00, 0x00, 0xba, 0xff, 0xff, 0xff, 0x00, 0x00, 0x00, 0x01,
  0x01, 0x00, 0x00, 0x00, 0x08, 0x00, 0x00, 0x00, 0x03, 0x00, 0x00, 0x00,
  0x07, 0x00, 0x00, 0x00, 0x05, 0x00, 0x00, 0x00, 0x01, 0x00, 0x00, 0x00,
  0x00, 0x00, 0x0e, 0x00, 0x16, 0x00, 0x00, 0x00, 0x10, 0x00, 0x0c, 0x00,
  0x0b, 0x00, 0x04, 0x00, 0x0e, 0x00, 0x00, 0x00, 0x18, 0x00, 0x00, 0x00,
  0x00, 0x00, 0x00, 0x08, 0x18, 0x00, 0x00, 0x00, 0x1c, 0x00, 0x00, 0x00,
  0x00, 0x00, 0x06, 0x00, 0x08, 0x00, 0x07, 0x00, 0x06, 0x00, 0x00, 0x00,
  0x00, 0x00, 0x00, 0x01, 0x01, 0x00, 0x00, 0x00, 0x07, 0x00, 0x00, 0x00,
  0x03, 0x00, 0x00, 0x00, 0x00, 0x00, 0x00, 0x00, 0x04, 0x00, 0x00, 0x00,
  0x03, 0x00, 0x00, 0x00, 0x01, 0x00, 0x00, 0x00, 0x0a, 0x00, 0x00, 0x00,
  0x01, 0x00, 0x00, 0x00, 0x00, 0x00, 0x00, 0x00, 0x0b, 0x00, 0x00, 0x00,
  0x04, 0x04, 0x00, 0x00, 0x94, 0x03, 0x00, 0x00, 0x24, 0x03, 0x00, 0x00,
  0xd0, 0x02, 0x00, 0x00, 0x88, 0x02, 0x00, 0x00, 0x3c, 0x02, 0x00, 0x00,
  0xf0, 0x01, 0x00, 0x00, 0x68, 0x01, 0x00, 0x00, 0xd8, 0x00, 0x00, 0x00,
  0x60, 0x00, 0x00, 0x00, 0x04, 0x00, 0x00, 0x00, 0x3e, 0xfc, 0xff, 0xff,
  0x00, 0x00, 0x00, 0x01, 0x14, 0x00, 0x00, 0x00, 0x1c, 0x00, 0x00, 0x00,
  0x1c, 0x00, 0x00, 0x00, 0x0b, 0x00, 0x00, 0x00, 0x34, 0x00, 0x00, 0x00,
  0x02, 0x00, 0x00, 0x00, 0xff, 0xff, 0xff, 0xff, 0x03, 0x00, 0x00, 0x00,
  0x28, 0xfc, 0xff, 0xff, 0x19, 0x00, 0x00, 0x00, 0x53, 0x74, 0x61, 0x74,
  0x65, 0x66, 0x75, 0x6c, 0x50, 0x61, 0x72, 0x74, 0x69, 0x74, 0x69, 0x6f,
  0x6e, 0x65, 0x64, 0x43, 0x61, 0x6c, 0x6c, 0x3a, 0x30, 0x00, 0x00, 0x00,
  0x02, 0x00, 0x00, 0x00, 0x01, 0x00, 0x00, 0x00, 0x03, 0x00, 0x00, 0x00,
  0x96, 0xfc, 0xff, 0xff, 0x00, 0x00, 0x00, 0x01, 0x14, 0x00, 0x00, 0x00,
  0x1c, 0x00, 0x00, 0x00, 0x1c, 0x00, 0x00, 0x00, 0x0a, 0x00, 0x00, 0x00,
  0x50, 0x00, 0x00, 0x00, 0x02, 0x00, 0x00, 0x00, 0xff, 0xff, 0xff, 0xff,
  0x03, 0x00, 0x00, 0x00, 0x80, 0xfc, 0xff, 0xff, 0x34, 0x00, 0x00, 0x00,
  0x73, 0x65, 0x71, 0x75, 0x65, 0x6e, 0x74, 0x69, 0x61, 0x6c, 0x2f, 0x64,
  0x65, 0x6e, 0x73, 0x65, 0x5f, 0x32, 0x2f, 0x4d, 0x61, 0x74, 0x4d, 0x75,
  0x6c, 0x3b, 0x73, 0x65, 0x71, 0x75, 0x65, 0x6e, 0x74, 0x69, 0x61, 0x6c,
  0x2f, 0x64, 0x65, 0x6e, 0x73, 0x65, 0x5f, 0x32, 0x2f, 0x42, 0x69, 0x61,
  0x73, 0x41, 0x64, 0x64, 0x00, 0x00, 0x00, 0x00, 0x02, 0x00, 0x00, 0x00,
  0x01, 0x00, 0x00, 0x00, 0x03, 0x00, 0x00, 0x00, 0x0a, 0xfd, 0xff, 0xff,
  0x00, 0x00, 0x00, 0x01, 0x14, 0x00, 0x00, 0x00, 0x1c, 0x00, 0x00, 0x00,
  0x1c, 0x00, 0x00, 0x00, 0x09, 0x00, 0x00, 0x00, 0x68, 0x00, 0x00, 0x00,
  0x02, 0x00, 0x00, 0x00, 0xff, 0xff, 0xff, 0xff, 0x08, 0x00, 0x00, 0x00,
  0xf4, 0xfc, 0xff, 0xff, 0x4c, 0x00, 0x00, 0x00, 0x73, 0x65, 0x71, 0x75,
  0x65, 0x6e, 0x74, 0x69, 0x61, 0x6c, 0x2f, 0x64, 0x65, 0x6e, 0x73, 0x65,
  0x5f, 0x31, 0x2f, 0x4d, 0x61, 0x74, 0x4d, 0x75, 0x6c, 0x3b, 0x73, 0x65,
  0x71, 0x75, 0x65, 0x6e, 0x74, 0x69, 0x61, 0x6c, 0x2f, 0x64, 0x65, 0x6e,
  0x73, 0x65, 0x5f, 0x31, 0x2f, 0x52, 0x65, 0x6c, 0x75, 0x3b, 0x73, 0x65,
  0x71, 0x75, 0x65, 0x6e, 0x74, 0x69, 0x61, 0x6c, 0x2f, 0x64, 0x65, 0x6e,
  0x73, 0x65, 0x5f, 0x31, 0x2f, 0x42, 0x69, 0x61, 0x73, 0x41, 0x64, 0x64,
  0x00, 0x00, 0x00, 0x00, 0x02, 0x00, 0x00, 0x00, 0x01, 0x00, 0x00, 0x00,
  0x08, 0x00, 0x00, 0x00, 0x96, 0xfd, 0xff, 0xff, 0x00, 0x00, 0x00, 0x01,
  0x14, 0x00, 0x00, 0x00, 0x1c, 0x00, 0x00, 0x00, 0x1c, 0x00, 0x00, 0x00,
  0x08, 0x00, 0x00, 0x00, 0x60, 0x00, 0x00, 0x00, 0x02, 0x00, 0x00, 0x00,
  0xff, 0xff, 0xff, 0xff, 0x10, 0x00, 0x00, 0x00, 0x80, 0xfd, 0xff, 0xff,
  0x46, 0x00, 0x00, 0x00, 0x73, 0x65, 0x71, 0x75, 0x65, 0x6e, 0x74, 0x69,
  0x61, 0x6c, 0x2f, 0x64, 0x65, 0x6e, 0x73, 0x65, 0x2f, 0x4d, 0x61, 0x74,
  0x4d, 0x75, 0x6c, 0x3b, 0x73, 0x65, 0x71, 0x75, 0x65, 0x6e, 0x74, 0x69,
  0x61, 0x6c, 0x2f, 0x64, 0x65, 0x6e, 0x73, 0x65, 0x2f, 0x52, 0x65, 0x6c,
  0x75, 0x3b, 0x73, 0x65, 0x71, 0x75, 0x65, 0x6e, 0x74, 0x69, 0x61, 0x6c,
  0x2f, 0x64, 0x65, 0x6e, 0x73, 0x65, 0x2f, 0x42, 0x69, 0x61, 0x73, 0x41,
  0x64, 0x64, 0x00, 0x00, 0x02, 0x00, 0x00, 0x00, 0x01, 0x00, 0x00, 0x00,
  0x10, 0x00, 0x00, 0x00, 0x86, 0xfe, 0xff, 0xff, 0x00, 0x00, 0x00, 0x01,
  0x10, 0x00, 0x00, 0x00, 0x10, 0x00, 0x00, 0x00, 0x07, 0x00, 0x00, 0x00,
  0x28, 0x00, 0x00, 0x00, 0xf4, 0xfd, 0xff, 0xff, 0x19, 0x00, 0x00, 0x00,
  0x73, 0x65, 0x71, 0x75, 0x65, 0x6e, 0x74, 0x69, 0x61, 0x6c, 0x2f, 0x64,
  0x65, 0x6e, 0x73, 0x65, 0x5f, 0x32, 0x2f, 0x4d, 0x61, 0x74, 0x4d, 0x75,
  0x6c, 0x00, 0x00, 0x00, 0x02, 0x00, 0x00, 0x00, 0x03, 0x00, 0x00, 0x00,
  0x08, 0x00, 0x00, 0x00, 0xce, 0xfe, 0xff, 0xff, 0x00, 0x00, 0x00, 0x01,
  0x10, 0x00, 0x00, 0x00, 0x10, 0x00, 0x00, 0x00, 0x06, 0x00, 0x00, 0x00,
  0x28, 0x00, 0x00, 0x00, 0x3c, 0xfe, 0xff, 0xff, 0x19, 0x00, 0x00, 0x00,
  0x73, 0x65, 0x71, 0x75, 0x65, 0x6e, 0x74, 0x69, 0x61, 0x6c, 0x2f, 0x64,
  0x65, 0x6e, 0x73, 0x65, 0x5f, 0x31, 0x2f, 0x4d, 0x61, 0x74, 0x4d, 0x75,
  0x6c, 0x00, 0x00, 0x00, 0x02, 0x00, 0x00, 0x00, 0x08, 0x00, 0x00, 0x00,
  0x10, 0x00, 0x00, 0x00, 0x16, 0xff, 0xff, 0xff, 0x00, 0x00, 0x00, 0x01,
  0x10, 0x00, 0x00, 0x00, 0x10, 0x00, 0x00, 0x00, 0x05, 0x00, 0x00, 0x00,
  0x24, 0x00, 0x00, 0x00, 0x84, 0xfe, 0xff, 0xff, 0x17, 0x00, 0x00, 0x00,
  0x73, 0x65, 0x71, 0x75, 0x65, 0x6e, 0x74, 0x69, 0x61, 0x6c, 0x2f, 0x64,
  0x65, 0x6e, 0x73, 0x65, 0x2f, 0x4d, 0x61, 0x74, 0x4d, 0x75, 0x6c, 0x00,
  0x02, 0x00, 0x00, 0x00, 0x10, 0x00, 0x00, 0x00, 0x04, 0x00, 0x00, 0x00,
  0x5a, 0xff, 0xff, 0xff, 0x00, 0x00, 0x00, 0x01, 0x10, 0x00, 0x00, 0x00,
  0x10, 0x00, 0x00, 0x00, 0x04, 0x00, 0x00, 0x00, 0x34, 0x00, 0x00, 0x00,
  0xc8, 0xfe, 0xff, 0xff, 0x27, 0x00, 0x00, 0x00, 0x73, 0x65, 0x71, 0x75,
  0x65, 0x6e, 0x74, 0x69, 0x61, 0x6c, 0x2f, 0x64, 0x65, 0x6e, 0x73, 0x65,
  0x2f, 0x42, 0x69, 0x61, 0x73, 0x41, 0x64, 0x64, 0x2f, 0x52, 0x65, 0x61,
  0x64, 0x56, 0x61, 0x72, 0x69, 0x61, 0x62, 0x6c, 0x65, 0x4f, 0x70, 0x00,
  0x01, 0x00, 0x00, 0x00, 0x10, 0x00, 0x00, 0x00, 0xaa, 0xff, 0xff, 0xff,
  0x00, 0x00, 0x00, 0x01, 0x10, 0x00, 0x00, 0x00, 0x10, 0x00, 0x00, 0x00,
  0x03, 0x00, 0x00, 0x00, 0x38, 0x00, 0x00, 0x00, 0x18, 0xff, 0xff, 0xff,
  0x29, 0x00, 0x00, 0x00, 0x73, 0x65, 0x71, 0x75, 0x65, 0x6e, 0x74, 0x69,
  0x61, 0x6c, 0x2f, 0x64, 0x65, 0x6e, 0x73, 0x65, 0x5f, 0x32, 0x2f, 0x42,
  0x69, 0x61, 0x73, 0x41, 0x64, 0x64, 0x2f, 0x52, 0x65, 0x61, 0x64, 0x56,
  0x61, 0x72, 0x69, 0x61, 0x62, 0x6c, 0x65, 0x4f, 0x70, 0x00, 0x00, 0x00,
  0x01, 0x00, 0x00, 0x00, 0x03, 0x00, 0x00, 0x00, 0x00, 0x00, 0x16, 0x00,
  0x18, 0x00, 0x14, 0x00, 0x00, 0x00, 0x10, 0x00, 0x0c, 0x00, 0x08, 0x00,
  0x00, 0x00, 0x00, 0x00, 0x00, 0x00, 0x07, 0x00, 0x16, 0x00, 0x00, 0x00,
  0x00, 0x00, 0x00, 0x01, 0x10, 0x00, 0x00, 0x00, 0x10, 0x00, 0x00, 0x00,
  0x02, 0x00, 0x00, 0x00, 0x38, 0x00, 0x00, 0x00, 0x84, 0xff, 0xff, 0xff,
  0x29, 0x00, 0x00, 0x00, 0x73, 0x65, 0x71, 0x75, 0x65, 0x6e, 0x74, 0x69,
  0x61, 0x6c, 0x2f, 0x64, 0x65, 0x6e, 0x73, 0x65, 0x5f, 0x31, 0x2f, 0x42,
  0x69, 0x61, 0x73, 0x41, 0x64, 0x64, 0x2f, 0x52, 0x65, 0x61, 0x64, 0x56,
  0x61, 0x72, 0x69, 0x61, 0x62, 0x6c, 0x65, 0x4f, 0x70, 0x00, 0x00, 0x00,
  0x01, 0x00, 0x00, 0x00, 0x08, 0x00, 0x00, 0x00, 0x00, 0x00, 0x16, 0x00,
  0x1c, 0x00, 0x18, 0x00, 0x00, 0x00, 0x14, 0x00, 0x10, 0x00, 0x0c, 0x00,
  0x00, 0x00, 0x00, 0x00, 0x08, 0x00, 0x07, 0x00, 0x16, 0x00, 0x00, 0x00,
  0x00, 0x00, 0x00, 0x01, 0x14, 0x00, 0x00, 0x00, 0x20, 0x00, 0x00, 0x00,
  0x20, 0x00, 0x00, 0x00, 0x01, 0x00, 0x00, 0x00, 0x38, 0x00, 0x00, 0x00,
  0x02, 0x00, 0x00, 0x00, 0xff, 0xff, 0xff, 0xff, 0x04, 0x00, 0x00, 0x00,
  0x04, 0x00, 0x04, 0x00, 0x04, 0x00, 0x00, 0x00, 0x19, 0x00, 0x00, 0x00,
  0x73, 0x65, 0x72, 0x76, 0x69, 0x6e, 0x67, 0x5f, 0x64, 0x65, 0x66, 0x61,
  0x75, 0x6c, 0x74, 0x5f, 0x69, 0x6e, 0x70, 0x75, 0x74, 0x5f, 0x31, 0x3a,
  0x30, 0x00, 0x00, 0x00, 0x02, 0x00, 0x00, 0x00, 0x01, 0x00, 0x00, 0x00,
  0x04, 0x00, 0x00, 0x00, 0x02, 0x00, 0x00, 0x00, 0x20, 0x00, 0x00, 0x00,
  0x04, 0x00, 0x00, 0x00, 0xf4, 0xff, 0xff, 0xff, 0x19, 0x00, 0x00, 0x00,
  0x00, 0x00, 0x00, 0x19, 0x0c, 0x00, 0x0c, 0x00, 0x0b, 0x00, 0x00, 0x00,
  0x00, 0x00, 0x04, 0x00, 0x0c, 0x00, 0x00, 0x00, 0x09, 0x00, 0x00, 0x00,
  0x00, 0x00, 0x00, 0x09
};

#endif // __TINYML_MODEL_H__
